{
     "activation_encodings": {
         "ArgMax:0": [{
             "min": 0,
             "max": 255,
             "scale": 1,
             "offset": 0,
             "is_symmetric": "False",
             "bitwidth": 8
        }]
    },
    "param_encodings": {}
}
